#include "seizure_model.h"

unsigned char seizure_model_tflite[] = {
  0x20, 0x00, 0x00, 0x00, 0x54, 0x46, 0x4c, 0x33, 0x00, 0x00, 0x00, 0x00,
  0x14, 0x00, 0x20, 0x00, 0x1c, 0x00, 0x18, 0x00, 0x14, 0x00, 0x10, 0x00,
  0x0c, 0x00, 0x00, 0x00, 0x08, 0x00, 0x04, 0x00, 0x14, 0x00, 0x00, 0x00,
  0x1c, 0x00, 0x00, 0x00, 0x8c, 0x00, 0x00, 0x00, 0xe4, 0x00, 0x00, 0x00,
  0x90, 0x0c, 0x00, 0x00, 0xa0, 0x0c, 0x00, 0x00, 0x70, 0x19, 0x00, 0x00,
  0x03, 0x00, 0x00, 0x00, 0x01, 0x00, 0x00, 0x00, 0x04, 0x00, 0x00, 0x00,
  0x1a, 0xf3, 0xff, 0xff, 0x0c, 0x00, 0x00, 0x00, 0x1c, 0x00, 0x00, 0x00,
  0x3c, 0x00, 0x00, 0x00, 0x0f, 0x00, 0x00, 0x00, 0x73, 0x65, 0x72, 0x76,
  0x69, 0x6e, 0x67, 0x5f, 0x64, 0x65, 0x66, 0x61, 0x75, 0x6c, 0x74, 0x00,
  0x01, 0x00, 0x00, 0x00, 0x04, 0x00, 0x00, 0x00, 0x90, 0xff, 0xff, 0xff,
  0x0c, 0x00, 0x00, 0x00, 0x04, 0x00, 0x00, 0x00, 0x08, 0x00, 0x00, 0x00,
  0x6f, 0x75, 0x74, 0x70, 0x75, 0x74, 0x5f, 0x30, 0x00, 0x00, 0x00, 0x00,
  0x01, 0x00, 0x00, 0x00, 0x04, 0x00, 0x00, 0x00, 0x26, 0xf3, 0xff, 0xff,
  0x04, 0x00, 0x00, 0x00, 0x0d, 0x00, 0x00, 0x00, 0x69, 0x6e, 0x70, 0x75,
  0x74, 0x5f, 0x6c, 0x61, 0x79, 0x65, 0x72, 0x5f, 0x39, 0x00, 0x00, 0x00,
  0x02, 0x00, 0x00, 0x00, 0x34, 0x00, 0x00, 0x00, 0x04, 0x00, 0x00, 0x00,
  0xdc, 0xff, 0xff, 0xff, 0x0f, 0x00, 0x00, 0x00, 0x04, 0x00, 0x00, 0x00,
  0x13, 0x00, 0x00, 0x00, 0x43, 0x4f, 0x4e, 0x56, 0x45, 0x52, 0x53, 0x49,
  0x4f, 0x4e, 0x5f, 0x4d, 0x45, 0x54, 0x41, 0x44, 0x41, 0x54, 0x41, 0x00,
  0x08, 0x00, 0x0c, 0x00, 0x08, 0x00, 0x04, 0x00, 0x08, 0x00, 0x00, 0x00,
  0x0e, 0x00, 0x00, 0x00, 0x04, 0x00, 0x00, 0x00, 0x13, 0x00, 0x00, 0x00,
  0x6d, 0x69, 0x6e, 0x5f, 0x72, 0x75, 0x6e, 0x74, 0x69, 0x6d, 0x65, 0x5f,
  0x76, 0x65, 0x72, 0x73, 0x69, 0x6f, 0x6e, 0x00, 0x10, 0x00, 0x00, 0x00,
  0xa8, 0x0b, 0x00, 0x00, 0xa0, 0x0b, 0x00, 0x00, 0x84, 0x0b, 0x00, 0x00,
  0x44, 0x0b, 0x00, 0x00, 0xf4, 0x0a, 0x00, 0x00, 0xe4, 0x08, 0x00, 0x00,
  0x54, 0x08, 0x00, 0x00, 0xc4, 0x00, 0x00, 0x00, 0xbc, 0x00, 0x00, 0x00,
  0xb4, 0x00, 0x00, 0x00, 0xac, 0x00, 0x00, 0x00, 0xa4, 0x00, 0x00, 0x00,
  0x9c, 0x00, 0x00, 0x00, 0x94, 0x00, 0x00, 0x00, 0x74, 0x00, 0x00, 0x00,
  0x04, 0x00, 0x00, 0x00, 0xe2, 0xf3, 0xff, 0xff, 0x04, 0x00, 0x00, 0x00,
  0x60, 0x00, 0x00, 0x00, 0x0c, 0x00, 0x00, 0x00, 0x08, 0x00, 0x0e, 0x00,
  0x08, 0x00, 0x04, 0x00, 0x08, 0x00, 0x00, 0x00, 0x10, 0x00, 0x00, 0x00,
  0x28, 0x00, 0x00, 0x00, 0x00, 0x00, 0x06, 0x00, 0x08, 0x00, 0x04, 0x00,
  0x06, 0x00, 0x00, 0x00, 0x04, 0x00, 0x00, 0x00, 0x01, 0x00, 0x00, 0x00,
  0xeb, 0x03, 0x00, 0x00, 0x0c, 0x00, 0x18, 0x00, 0x14, 0x00, 0x10, 0x00,
  0x0c, 0x00, 0x04, 0x00, 0x0c, 0x00, 0x00, 0x00, 0x98, 0xb1, 0xcb, 0x31,
  0x78, 0x97, 0xf2, 0xee, 0x02, 0x00, 0x00, 0x00, 0x02, 0x00, 0x00, 0x00,
  0x04, 0x00, 0x00, 0x00, 0x06, 0x00, 0x00, 0x00, 0x32, 0x2e, 0x32, 0x30,
  0x2e, 0x30, 0x00, 0x00, 0x4e, 0xf4, 0xff, 0xff, 0x04, 0x00, 0x00, 0x00,
  0x10, 0x00, 0x00, 0x00, 0x31, 0x2e, 0x31, 0x34, 0x2e, 0x30, 0x00, 0x00,
  0x00, 0x00, 0x00, 0x00, 0x00, 0x00, 0x00, 0x00, 0x6c, 0xe8, 0xff, 0xff,
  0x70, 0xe8, 0xff, 0xff, 0x74, 0xe8, 0xff, 0xff, 0x78, 0xe8, 0xff, 0xff,
  0x7c, 0xe8, 0xff, 0xff, 0x80, 0xe8, 0xff, 0xff, 0x82, 0xf4, 0xff, 0xff,
  0x04, 0x00, 0x00, 0x00, 0x80, 0x07, 0x00, 0x00, 0x63, 0x0d, 0x3e, 0x50,
  0xb3, 0xd8, 0xc5, 0x42, 0x06, 0x8d, 0x01, 0x26, 0x25, 0x25, 0x46, 0x16,
  0xd2, 0x8a, 0x2a, 0x1b, 0xa2, 0x5a, 0xf8, 0x16, 0x53, 0xb4, 0xda, 0x2f,
  0xb2, 0xea, 0xc3, 0xde, 0x7b, 0x89, 0xf8, 0xd4, 0xb5, 0xbe, 0x70, 0x35,
  0x31, 0x15, 0xb8, 0x9a, 0x52, 0xb7, 0x5b, 0x82, 0x33, 0x50, 0xd2, 0x66,
  0x7a, 0xcc, 0x7f, 0x20, 0x6d, 0x08, 0xff, 0x14, 0x0e, 0x10, 0xe2, 0xe4,
  0xc3, 0x41, 0x6d, 0xd8, 0x49, 0xa5, 0xd4, 0x5d, 0x32, 0xd5, 0xba, 0xee,
  0x3f, 0x9c, 0x40, 0x99, 0xf2, 0x62, 0x2b, 0xb5, 0xa9, 0x64, 0xea, 0x35,
  0xde, 0xbe, 0x3f, 0x6b, 0x5d, 0xfe, 0x16, 0xff, 0x28, 0x97, 0xb0, 0x23,
  0x73, 0x22, 0xb7, 0xd0, 0x72, 0x17, 0x16, 0x22, 0xf7, 0xd3, 0x54, 0x01,
  0x30, 0xe0, 0x5f, 0x12, 0x50, 0x81, 0x4b, 0xf3, 0x09, 0x56, 0xd8, 0xbd,
  0xd5, 0xf6, 0xe9, 0x57, 0xe1, 0x2b, 0xe5, 0x34, 0xf9, 0xb9, 0x09, 0xa8,
  0xb6, 0x79, 0x00, 0x5b, 0xf2, 0xe8, 0xca, 0xb5, 0x03, 0x27, 0xca, 0x2b,
  0x94, 0x6f, 0xe4, 0x0d, 0xf8, 0x43, 0xe9, 0x33, 0xbb, 0xdf, 0x12, 0x7f,
  0xcd, 0x96, 0x2e, 0x07, 0xfd, 0xb2, 0x34, 0x3c, 0xcf, 0xcd, 0xa2, 0x2e,
  0x66, 0xb2, 0xc8, 0x28, 0xf9, 0x25, 0x18, 0x01, 0x4c, 0xf0, 0x81, 0x76,
  0xce, 0xe0, 0x99, 0x67, 0xed, 0xb3, 0xed, 0xb7, 0xaa, 0x0b, 0xd9, 0x9a,
  0x30, 0x51, 0xbf, 0x96, 0x39, 0x48, 0x34, 0x0a, 0xe3, 0xd7, 0xa0, 0xbb,
  0xcf, 0xfc, 0xf3, 0x2d, 0x16, 0x5b, 0x2b, 0x47, 0x4e, 0xcb, 0xbe, 0x42,
  0xe9, 0x3f, 0x38, 0xf3, 0x03, 0xc2, 0x20, 0x42, 0xc7, 0x1b, 0x25, 0xc9,
  0x4d, 0x3d, 0x47, 0xff, 0x0d, 0x5e, 0xe1, 0x43, 0xd8, 0x56, 0x53, 0x0d,
  0xa7, 0x6a, 0x31, 0x8a, 0xf8, 0x3b, 0xdd, 0x68, 0xd7, 0x08, 0x43, 0x7f,
  0xe9, 0x19, 0x79, 0x03, 0xd4, 0x1b, 0xe3, 0xe6, 0x37, 0x55, 0x04, 0x98,
  0x16, 0xae, 0xe7, 0x47, 0x1a, 0x20, 0x6f, 0xb8, 0x59, 0x85, 0xe8, 0xd5,
  0x74, 0xf4, 0xc3, 0xd4, 0x5c, 0xc7, 0xda, 0x2f, 0xca, 0xf4, 0x29, 0x0c,
  0x26, 0xe4, 0xf9, 0x27, 0xcf, 0x99, 0x2c, 0x1a, 0x42, 0x05, 0xa0, 0xfe,
  0xa0, 0xc6, 0xcf, 0xc8, 0x34, 0xba, 0xf0, 0xde, 0x3b, 0xe3, 0xe0, 0xcc,
  0x9e, 0x37, 0x2e, 0x3b, 0x7f, 0xb3, 0x59, 0x5e, 0x93, 0x14, 0x04, 0x31,
  0x0e, 0x0a, 0xc4, 0x32, 0x20, 0x6c, 0xbd, 0x07, 0x2b, 0x97, 0xd8, 0x14,
  0xd5, 0xcc, 0x38, 0xc0, 0xb2, 0xbd, 0xdc, 0xe9, 0x5e, 0xe3, 0x1d, 0x17,
  0x8f, 0xf8, 0xeb, 0x13, 0xbc, 0xd7, 0x29, 0xc8, 0x3d, 0xa8, 0x4a, 0xf0,
  0x0b, 0x35, 0xf1, 0x7c, 0x0a, 0x30, 0x43, 0xdd, 0x0b, 0x18, 0xfa, 0x04,
  0xf5, 0x40, 0xe2, 0x57, 0x81, 0x04, 0x30, 0xb0, 0x23, 0xdb, 0x94, 0x5f,
  0xfb, 0x5f, 0xc5, 0x1a, 0xea, 0xbd, 0x25, 0x88, 0xef, 0x49, 0xa7, 0x30,
  0x98, 0x95, 0x49, 0x1b, 0x2a, 0xf2, 0xb0, 0xfc, 0x30, 0x26, 0xaf, 0xc9,
  0x10, 0x50, 0x9f, 0xf7, 0xad, 0xdb, 0xa8, 0x20, 0xb4, 0xa0, 0xad, 0xd2,
  0xd2, 0x28, 0xaa, 0xb9, 0x96, 0xf2, 0x54, 0x49, 0xb8, 0xc4, 0xe1, 0xa0,
  0x0a, 0x13, 0xe3, 0x20, 0x73, 0xf9, 0xdb, 0x07, 0x9d, 0x7f, 0x65, 0x2f,
  0xbf, 0x3d, 0x22, 0x13, 0x0f, 0x2f, 0x4e, 0xec, 0xe2, 0x48, 0xea, 0x88,
  0xe6, 0x1a, 0xe2, 0x10, 0x94, 0xec, 0xd8, 0xe2, 0x1b, 0xb1, 0xd8, 0x29,
  0x0e, 0x2c, 0x0e, 0x66, 0xd2, 0xf4, 0xf5, 0x8f, 0xde, 0xa4, 0xa2, 0x7e,
  0x01, 0x92, 0x20, 0x28, 0xbb, 0x1d, 0xc9, 0xf3, 0xa6, 0x1e, 0xc5, 0x07,
  0x24, 0x4b, 0xd0, 0xf4, 0xdd, 0x01, 0x32, 0x45, 0xa4, 0x4c, 0x7f, 0xe8,
  0x90, 0xcf, 0xd1, 0x93, 0xeb, 0x43, 0xec, 0x5c, 0x24, 0xc3, 0x6a, 0x39,
  0xe2, 0x25, 0xb5, 0x3d, 0x82, 0xaf, 0x05, 0x3a, 0x9c, 0x16, 0x1b, 0x1d,
  0x84, 0x24, 0x46, 0x00, 0x1d, 0x37, 0x68, 0x13, 0xab, 0x46, 0x29, 0x9e,
  0x3a, 0x6c, 0x5a, 0xda, 0x28, 0xe8, 0x68, 0xb4, 0x0c, 0x4d, 0xec, 0xda,
  0xe9, 0x9a, 0xdb, 0xdf, 0xa0, 0x59, 0xd5, 0xb2, 0x6c, 0x1d, 0x3f, 0xb0,
  0x7f, 0xf6, 0x2e, 0xc5, 0x49, 0x8a, 0xd8, 0xb1, 0xae, 0xae, 0xfd, 0x3a,
  0x4c, 0xcb, 0xd8, 0x4c, 0x73, 0x26, 0xaf, 0xfb, 0x30, 0x5d, 0x00, 0x60,
  0x1b, 0xac, 0x35, 0xc4, 0x7b, 0x85, 0x00, 0xd5, 0x37, 0xd8, 0x82, 0x17,
  0xc5, 0xc2, 0x94, 0xc3, 0x5a, 0xa9, 0xf8, 0x9a, 0xda, 0x3c, 0x81, 0xe1,
  0x2b, 0xae, 0x2a, 0x42, 0x67, 0x8b, 0xc4, 0x53, 0x2c, 0xdb, 0x72, 0xdb,
  0x20, 0x81, 0xea, 0x9e, 0xc3, 0xbb, 0xe9, 0x94, 0xd1, 0x22, 0x9e, 0x19,
  0xfa, 0xcd, 0x4d, 0x39, 0x0c, 0x13, 0x5d, 0x3f, 0x46, 0xb4, 0xbf, 0x68,
  0x07, 0xe4, 0x1c, 0xbe, 0xc2, 0x97, 0x30, 0xf4, 0x88, 0xdb, 0xb1, 0xf5,
  0xd4, 0x0c, 0xf0, 0x66, 0x81, 0x6e, 0x9f, 0xe7, 0x14, 0xa1, 0xd9, 0x8e,
  0xa3, 0x58, 0x9c, 0x0f, 0xf5, 0x29, 0xc5, 0x1d, 0xfb, 0x1f, 0x9c, 0xe8,
  0xa9, 0xff, 0x09, 0xe9, 0x97, 0xc8, 0x9c, 0xd7, 0xa0, 0xd1, 0xf7, 0x20,
  0xa7, 0xf4, 0x2e, 0x19, 0xef, 0x0d, 0x89, 0xc2, 0xb6, 0xa2, 0xfb, 0xcd,
  0x0e, 0x19, 0x9e, 0xf8, 0xac, 0x12, 0xef, 0x3b, 0x3b, 0xc1, 0x10, 0xf6,
  0xfe, 0xd7, 0x52, 0xf6, 0xcd, 0x00, 0x53, 0x4e, 0x38, 0xce, 0x24, 0x8e,
  0x40, 0x28, 0x50, 0xc9, 0x96, 0x51, 0x4e, 0x55, 0x47, 0x45, 0x40, 0xc5,
  0x20, 0x39, 0x53, 0x88, 0x8e, 0xea, 0x31, 0x06, 0xdb, 0xf3, 0x97, 0x9d,
  0x06, 0xfb, 0xed, 0x6b, 0x3d, 0xc0, 0x27, 0x1b, 0xf2, 0x40, 0x3a, 0x33,
  0x0a, 0x7f, 0xee, 0xe8, 0x32, 0x2c, 0xad, 0xda, 0x6e, 0x1a, 0x10, 0x93,
  0xca, 0x58, 0xfb, 0xb6, 0x7a, 0xea, 0xe2, 0xd6, 0x32, 0xc1, 0x40, 0x4e,
  0xd3, 0x0a, 0x68, 0x25, 0xd3, 0x43, 0xd2, 0x21, 0xcf, 0x53, 0xc5, 0xaa,
  0xbf, 0x03, 0xef, 0x42, 0x47, 0x39, 0x06, 0x74, 0x7f, 0xc9, 0xd7, 0x5e,
  0xde, 0x7b, 0x5c, 0x10, 0x53, 0xc2, 0xc4, 0xdd, 0x2d, 0xb3, 0xe4, 0x6c,
  0x46, 0x95, 0x2b, 0x49, 0x62, 0xdf, 0x02, 0xc2, 0xcb, 0x65, 0xfd, 0x39,
  0x19, 0x18, 0x51, 0xda, 0x27, 0xc1, 0x1f, 0x7a, 0x5f, 0xae, 0x58, 0x30,
  0x40, 0x3f, 0x09, 0x9e, 0x1d, 0x73, 0xff, 0x58, 0xd5, 0x7f, 0x06, 0x23,
  0x66, 0xba, 0xc1, 0xd8, 0xd9, 0x49, 0x61, 0x33, 0xf9, 0x06, 0x6b, 0x19,
  0x78, 0x4f, 0x57, 0x3f, 0xf0, 0x12, 0x11, 0xdd, 0x37, 0x4e, 0xbd, 0x7b,
  0x68, 0x86, 0xcc, 0x1e, 0xe7, 0xcd, 0x36, 0x01, 0x3c, 0x7f, 0x46, 0x02,
  0x46, 0x2f, 0xd5, 0x07, 0x47, 0x25, 0xeb, 0x4f, 0x15, 0x1c, 0x00, 0x67,
  0x7f, 0xaf, 0x49, 0x48, 0x27, 0xf5, 0x6d, 0x1c, 0x41, 0xf1, 0x3e, 0x8e,
  0x5a, 0xe2, 0xd6, 0xb0, 0x3a, 0x9c, 0x66, 0x3a, 0x2f, 0x1d, 0x57, 0x2b,
  0xaf, 0x39, 0x4a, 0x55, 0xc4, 0x0f, 0x60, 0xf6, 0xab, 0x23, 0xc7, 0x03,
  0x1d, 0x50, 0x6f, 0x33, 0xc2, 0x92, 0xc5, 0x3e, 0x92, 0x96, 0x70, 0x2e,
  0x5f, 0xd4, 0x9d, 0x66, 0x32, 0x58, 0x3a, 0xc8, 0xaa, 0x29, 0x1d, 0xf9,
  0x96, 0xa2, 0x9d, 0x6a, 0x94, 0x4b, 0x0e, 0x8a, 0x05, 0xc7, 0xe4, 0x49,
  0x40, 0xc9, 0xf6, 0x02, 0xbe, 0xbf, 0xc2, 0x0c, 0xd8, 0x44, 0x5d, 0x1d,
  0xc0, 0xf6, 0xa1, 0x4e, 0xf4, 0x03, 0x45, 0x07, 0xfe, 0x4a, 0x3c, 0x4f,
  0x05, 0x86, 0x2a, 0xbb, 0x98, 0x7f, 0x90, 0x1e, 0x22, 0x0f, 0xe5, 0x21,
  0xf9, 0xa1, 0x19, 0x6b, 0x2c, 0x66, 0xc0, 0x33, 0xfe, 0xb1, 0x02, 0xce,
  0xc0, 0x57, 0xef, 0x56, 0xc3, 0x07, 0xd0, 0x8d, 0xbf, 0xbc, 0x0d, 0x7f,
  0xaa, 0xec, 0x36, 0xd1, 0xee, 0xe0, 0x3d, 0x9e, 0xed, 0xf7, 0xeb, 0x02,
  0x2a, 0x18, 0x50, 0xfe, 0xcc, 0x0a, 0xa2, 0x33, 0x11, 0x48, 0xfb, 0xb6,
  0x40, 0xf6, 0x4d, 0xba, 0xc2, 0x12, 0xff, 0xee, 0xc1, 0x02, 0xed, 0xb5,
  0x7a, 0xe8, 0x43, 0xdd, 0x16, 0xbb, 0xae, 0x72, 0x6d, 0xa6, 0x6e, 0x72,
  0xfe, 0xf7, 0x53, 0x7c, 0xc7, 0x73, 0x5d, 0x1a, 0x7f, 0xc7, 0x0f, 0xc3,
  0xf1, 0xf8, 0x51, 0x3a, 0x76, 0xe7, 0x7c, 0xca, 0xfd, 0xdd, 0x42, 0x3f,
  0xe5, 0xe3, 0x5d, 0x8a, 0x66, 0x21, 0xad, 0x8c, 0x24, 0x7e, 0xc6, 0x4d,
  0xaa, 0xef, 0x18, 0xc8, 0x27, 0x9a, 0x10, 0x42, 0x22, 0x46, 0xed, 0x9f,
  0xae, 0x2e, 0x9e, 0x21, 0x9a, 0x02, 0xaa, 0x47, 0xfd, 0xa3, 0xd4, 0x6e,
  0xde, 0xe0, 0x2e, 0xb3, 0xe2, 0x2e, 0xdd, 0x63, 0xb3, 0xb9, 0xab, 0xda,
  0xed, 0x2c, 0xba, 0x4e, 0xb2, 0x8a, 0x2f, 0x81, 0x0e, 0x16, 0xd9, 0x1a,
  0xd4, 0x27, 0x6d, 0x67, 0xbd, 0x56, 0xfc, 0x17, 0xdb, 0xc2, 0xcf, 0x64,
  0x6a, 0x3f, 0xc6, 0x65, 0x92, 0x4f, 0x8f, 0x22, 0x01, 0xd9, 0xf1, 0xc8,
  0xae, 0x54, 0xbe, 0x0a, 0x40, 0xa1, 0x18, 0xd0, 0x6e, 0xfa, 0x3b, 0x3d,
  0xe8, 0xa7, 0x76, 0xde, 0x45, 0xcb, 0x54, 0x03, 0x5c, 0xf2, 0x15, 0x51,
  0x7f, 0xe9, 0x25, 0xf6, 0xb9, 0xd7, 0xe1, 0x22, 0xe5, 0xba, 0xe3, 0x3e,
  0x4d, 0x1b, 0x78, 0xd8, 0x2a, 0x78, 0x4b, 0xe1, 0x7f, 0x5b, 0x60, 0x2c,
  0x5a, 0xd4, 0x78, 0x52, 0x48, 0xe0, 0x07, 0xbb, 0x55, 0x45, 0xbd, 0xb5,
  0x12, 0x47, 0x10, 0x3a, 0xae, 0x4c, 0x92, 0xec, 0xee, 0xb1, 0x53, 0xb5,
  0x26, 0x3a, 0xf8, 0x20, 0x1c, 0x67, 0x48, 0x0c, 0xbd, 0x81, 0x8b, 0x37,
  0x4a, 0x4a, 0x48, 0x9f, 0xb3, 0xd5, 0xce, 0x18, 0x96, 0x1d, 0xc0, 0xef,
  0xe5, 0xb4, 0x13, 0xe6, 0x37, 0x44, 0x9c, 0x13, 0x94, 0xfd, 0x41, 0x0e,
  0xf0, 0xfd, 0x26, 0x95, 0x21, 0xfe, 0x07, 0x26, 0xe7, 0x3f, 0xf1, 0xe0,
  0x2a, 0xc2, 0xdb, 0x17, 0x13, 0xb4, 0x45, 0xd6, 0xc2, 0x3e, 0x04, 0xeb,
  0xf2, 0xad, 0xd0, 0xeb, 0x7f, 0xba, 0xdf, 0x4e, 0xed, 0x01, 0x1c, 0xdf,
  0xe9, 0xb0, 0x37, 0xf8, 0x1a, 0x33, 0xb1, 0x4a, 0x0f, 0xda, 0xd7, 0xfb,
  0x19, 0x39, 0xec, 0xdc, 0xbf, 0xfe, 0x32, 0x38, 0xd1, 0xa3, 0x00, 0x16,
  0xab, 0x1f, 0xbd, 0x38, 0xfa, 0x2a, 0xe3, 0x2b, 0x3b, 0xf0, 0x0b, 0x20,
  0x4f, 0xa7, 0x20, 0x0c, 0xbc, 0x4b, 0x08, 0x02, 0x0b, 0xfd, 0x1b, 0x49,
  0xa2, 0xcc, 0x08, 0x2f, 0x93, 0xcc, 0xdd, 0xd1, 0xf8, 0xa8, 0xbc, 0xf1,
  0x25, 0x7f, 0xbe, 0x90, 0xf7, 0xee, 0x02, 0xb4, 0x00, 0x0f, 0xff, 0x20,
  0xf9, 0x9a, 0xf1, 0xb9, 0xe4, 0x2f, 0xad, 0x20, 0x8e, 0xfd, 0x42, 0x1e,
  0xc9, 0xd7, 0x43, 0xd9, 0xac, 0x39, 0xfb, 0x5d, 0xa4, 0xda, 0x36, 0x21,
  0x2f, 0xad, 0x44, 0x69, 0xc4, 0xef, 0x41, 0x1a, 0x40, 0xef, 0xf8, 0x46,
  0x06, 0xe0, 0x9f, 0xdf, 0xb2, 0xca, 0x03, 0x98, 0x0e, 0xbe, 0xc9, 0x7f,
  0xb8, 0x47, 0xdd, 0xbd, 0xb4, 0xc8, 0xe2, 0x18, 0x10, 0xd7, 0x94, 0x5b,
  0xa3, 0xbc, 0x3d, 0x16, 0xc7, 0x12, 0xe9, 0x25, 0xb1, 0x2f, 0x0c, 0x22,
  0xbb, 0xb5, 0x32, 0xd6, 0xff, 0x67, 0xe8, 0x33, 0xb7, 0xc8, 0xcd, 0xe1,
  0x14, 0xb1, 0x40, 0xd3, 0xaa, 0x20, 0xf8, 0x51, 0x38, 0x03, 0x6b, 0x05,
  0x47, 0x51, 0x90, 0x1a, 0xf9, 0xe3, 0xf0, 0xbb, 0x6d, 0xbf, 0x92, 0xe5,
  0xcc, 0x06, 0xa2, 0xc7, 0x50, 0xd3, 0x44, 0xad, 0x3d, 0x1c, 0x81, 0x01,
  0xc1, 0xaa, 0x10, 0xb0, 0x5c, 0xc7, 0x37, 0x72, 0x23, 0x33, 0x30, 0xaf,
  0xfe, 0x33, 0x54, 0xe6, 0xe2, 0x64, 0xac, 0x33, 0x22, 0xff, 0x59, 0xe2,
  0xd2, 0x1b, 0xec, 0x3f, 0xa9, 0x1a, 0x22, 0x03, 0x38, 0x27, 0x13, 0x18,
  0xc5, 0xfc, 0xc2, 0x52, 0x81, 0xe3, 0x26, 0xb2, 0x34, 0x05, 0xbe, 0x56,
  0x19, 0x65, 0xa4, 0x2f, 0xcf, 0x34, 0xb8, 0xaa, 0x0b, 0x06, 0xd2, 0xf0,
  0xb0, 0xf8, 0x16, 0xf6, 0x03, 0xcf, 0xcb, 0x5d, 0xf8, 0x67, 0xc9, 0xb5,
  0x38, 0x2e, 0xea, 0xed, 0xd8, 0x43, 0xba, 0x28, 0xdc, 0x8b, 0x91, 0xe9,
  0x81, 0xec, 0x9a, 0x09, 0x3d, 0x8e, 0x45, 0x8c, 0x98, 0xce, 0x0e, 0x3f,
  0xf4, 0x4a, 0xab, 0x48, 0x41, 0x15, 0x01, 0x6f, 0x8c, 0x9d, 0x3a, 0x0d,
  0xfc, 0x27, 0x1d, 0x20, 0x84, 0x39, 0x1f, 0xdf, 0xea, 0xbc, 0x0f, 0x06,
  0xfc, 0xee, 0xe7, 0x78, 0xfe, 0x89, 0xd1, 0x4e, 0xce, 0x31, 0xc0, 0x96,
  0x02, 0x3d, 0x0c, 0x1e, 0x17, 0x7f, 0x02, 0xd0, 0x55, 0xf9, 0x23, 0x4e,
  0x0f, 0x62, 0x6c, 0xe0, 0xdf, 0x32, 0x44, 0x3d, 0xb3, 0xfc, 0xc5, 0x43,
  0x70, 0x32, 0x2a, 0xe7, 0xa5, 0x15, 0x60, 0xad, 0xb6, 0x3a, 0x76, 0x81,
  0x57, 0xff, 0x1b, 0x6c, 0x53, 0xca, 0x4b, 0xe1, 0x67, 0xfb, 0xeb, 0x76,
  0x68, 0x6d, 0xe6, 0xfb, 0x35, 0xd0, 0xfa, 0xff, 0xf6, 0xdc, 0xea, 0x65,
  0x70, 0xb0, 0xe0, 0x47, 0x09, 0xe4, 0x21, 0x2a, 0x53, 0x19, 0x18, 0xbe,
  0xbd, 0xaf, 0xbe, 0xb3, 0x91, 0xcf, 0xb1, 0x1f, 0xd5, 0x61, 0x1e, 0xa7,
  0xe9, 0xe6, 0xf1, 0x4e, 0x7f, 0x3c, 0xf2, 0xf6, 0x49, 0xea, 0x40, 0xe0,
  0x19, 0x58, 0x12, 0x9c, 0x29, 0x1f, 0xcd, 0xd4, 0x1a, 0x3b, 0xce, 0xfc,
  0x1a, 0x9b, 0xcc, 0x4b, 0x98, 0x3d, 0xd6, 0x41, 0xe8, 0x0a, 0x93, 0xcb,
  0xff, 0x6a, 0x39, 0x1d, 0xef, 0xce, 0xfa, 0x97, 0xc2, 0x06, 0x2f, 0x53,
  0xb4, 0x3e, 0xab, 0xc8, 0x48, 0xcc, 0x41, 0x1c, 0x10, 0xe8, 0x13, 0xd9,
  0xca, 0xb0, 0xf7, 0x92, 0x40, 0xe7, 0xf2, 0x5b, 0xb9, 0x18, 0xf3, 0x81,
  0xcf, 0xcd, 0x02, 0x4b, 0x3c, 0x19, 0xed, 0x06, 0xb2, 0xa0, 0xc1, 0x97,
  0x2e, 0x2e, 0xf3, 0x3e, 0x18, 0xf6, 0x36, 0xb1, 0xc8, 0xdf, 0xfb, 0x22,
  0xb9, 0xfc, 0x03, 0x48, 0x46, 0x43, 0xb7, 0x8d, 0xec, 0xa0, 0x2c, 0xd9,
  0xc1, 0x09, 0x2d, 0x65, 0x4f, 0x63, 0xc3, 0xc9, 0x5f, 0x49, 0x5b, 0xb3,
  0x03, 0x28, 0xd7, 0x51, 0x81, 0x9d, 0xbb, 0xfe, 0xda, 0x8b, 0x29, 0xf1,
  0x99, 0x72, 0xbc, 0x8a, 0x65, 0xe8, 0xef, 0x04, 0x2f, 0x0e, 0x47, 0xe6,
  0xea, 0xc9, 0xb2, 0x3c, 0x6e, 0x08, 0xd3, 0x68, 0xfe, 0x0c, 0xf2, 0x20,
  0x25, 0xb7, 0x9e, 0x8d, 0xee, 0xcc, 0x3c, 0x70, 0x0e, 0xfc, 0xff, 0xff,
  0x04, 0x00, 0x00, 0x00, 0x80, 0x00, 0x00, 0x00, 0x3f, 0x00, 0x00, 0x00,
  0x29, 0x00, 0x00, 0x00, 0x43, 0x00, 0x00, 0x00, 0x3d, 0x00, 0x00, 0x00,
  0x2d, 0x00, 0x00, 0x00, 0xd8, 0xff, 0xff, 0xff, 0x48, 0x00, 0x00, 0x00,
  0xdc, 0xff, 0xff, 0xff, 0xd2, 0xff, 0xff, 0xff, 0x26, 0x00, 0x00, 0x00,
  0xdf, 0xff, 0xff, 0xff, 0x44, 0x00, 0x00, 0x00, 0x22, 0x00, 0x00, 0x00,
  0x33, 0x00, 0x00, 0x00, 0x2e, 0x00, 0x00, 0x00, 0x3f, 0x00, 0x00, 0x00,
  0x1c, 0x00, 0x00, 0x00, 0x44, 0x00, 0x00, 0x00, 0x3a, 0x00, 0x00, 0x00,
  0x08, 0x00, 0x00, 0x00, 0x1b, 0x00, 0x00, 0x00, 0x54, 0x00, 0x00, 0x00,
  0xe4, 0xff, 0xff, 0xff, 0x4c, 0x00, 0x00, 0x00, 0x40, 0x00, 0x00, 0x00,
  0x44, 0x00, 0x00, 0x00, 0x3f, 0x00, 0x00, 0x00, 0x31, 0x00, 0x00, 0x00,
  0x3c, 0x00, 0x00, 0x00, 0x2e, 0x00, 0x00, 0x00, 0xee, 0xff, 0xff, 0xff,
  0x2a, 0x00, 0x00, 0x00, 0x9a, 0xfc, 0xff, 0xff, 0x04, 0x00, 0x00, 0x00,
  0x00, 0x02, 0x00, 0x00, 0x47, 0x19, 0x7f, 0xd5, 0xaa, 0xb5, 0x6f, 0xdb,
  0x31, 0xfc, 0xf7, 0x07, 0x4b, 0xe1, 0xcd, 0xd7, 0x74, 0x5b, 0x28, 0x38,
  0xbd, 0xf3, 0x25, 0x67, 0x38, 0x74, 0x47, 0x25, 0x0f, 0xfe, 0xc7, 0x5a,
  0xc4, 0xf8, 0x3d, 0x3b, 0xf5, 0x11, 0x79, 0xe7, 0xe0, 0x1d, 0xe7, 0x50,
  0x01, 0x50, 0xc7, 0x65, 0xfd, 0x1c, 0xc8, 0xd6, 0x3a, 0x60, 0xbc, 0x5b,
  0x77, 0x62, 0x7f, 0x1a, 0x56, 0xea, 0xc9, 0xf7, 0x7f, 0x65, 0xad, 0x9c,
  0x59, 0xd5, 0x3f, 0x33, 0x42, 0x24, 0x0f, 0xff, 0x42, 0x10, 0x2d, 0x18,
  0x56, 0x0f, 0xb6, 0xb6, 0x19, 0xe1, 0x1b, 0x22, 0xe4, 0x91, 0xb9, 0x28,
  0x41, 0xa6, 0x11, 0xd1, 0xb0, 0xcc, 0xb6, 0xf4, 0x0d, 0x10, 0x9d, 0x3b,
  0x15, 0xf5, 0x69, 0x5a, 0xd4, 0x2a, 0xcf, 0xd5, 0x18, 0x81, 0x16, 0xe4,
  0xf5, 0x21, 0x38, 0x0c, 0x9a, 0xbc, 0x26, 0x2f, 0xe4, 0x4a, 0x55, 0x52,
  0xee, 0x90, 0xed, 0x65, 0x40, 0xfd, 0x6e, 0x9f, 0x37, 0xa9, 0xfe, 0xfe,
  0x15, 0xf8, 0x14, 0x18, 0xf3, 0x19, 0xd2, 0xc6, 0x2c, 0x31, 0xe5, 0x5c,
  0x7f, 0x4b, 0x01, 0xff, 0xd4, 0x0d, 0xe0, 0x0d, 0xcf, 0x22, 0x94, 0x19,
  0x9d, 0x01, 0x96, 0xb5, 0x47, 0xfd, 0xd6, 0xa4, 0x7f, 0x55, 0x24, 0xe0,
  0x0f, 0x44, 0x7d, 0xdf, 0xff, 0x02, 0xfe, 0x02, 0xb7, 0xfb, 0xff, 0x25,
  0xc3, 0xcc, 0x6b, 0x8f, 0x96, 0x4b, 0xe3, 0x8d, 0xbd, 0x00, 0x93, 0xfa,
  0xdb, 0xd7, 0xb8, 0xb2, 0xd4, 0x02, 0x69, 0xed, 0x14, 0x62, 0xb8, 0x43,
  0x1c, 0xea, 0xf0, 0x2a, 0x3b, 0xd6, 0xfe, 0x81, 0x02, 0x98, 0xa4, 0xd0,
  0xf8, 0xb9, 0x48, 0x50, 0xe0, 0xbf, 0x2d, 0x08, 0xdb, 0xd8, 0xef, 0x63,
  0x0d, 0xf6, 0xab, 0x3f, 0x06, 0x41, 0x4a, 0x16, 0xec, 0x69, 0x11, 0x7f,
  0xe5, 0x1c, 0x16, 0x55, 0xc3, 0x26, 0xd6, 0x14, 0xa2, 0xe6, 0x15, 0x7d,
  0xd7, 0x5a, 0x9e, 0xf2, 0x7f, 0xd7, 0x43, 0x37, 0xd7, 0xc1, 0x1f, 0x09,
  0xbb, 0x91, 0x1d, 0xd3, 0xfb, 0xb1, 0x16, 0xf2, 0xd9, 0x23, 0xca, 0x29,
  0xcc, 0x27, 0x65, 0xb2, 0x7e, 0x15, 0x56, 0x56, 0x7a, 0xd8, 0x54, 0x1b,
  0xb8, 0x6c, 0xf3, 0xe0, 0x2b, 0x4c, 0x4d, 0x05, 0x57, 0x49, 0xe6, 0x30,
  0xc4, 0xf7, 0xd8, 0x10, 0x3f, 0x7f, 0xd1, 0xe1, 0xcc, 0xd9, 0xf2, 0xd2,
  0xe2, 0x7f, 0xb3, 0x55, 0xf4, 0x3e, 0xc6, 0x8f, 0x9f, 0xf4, 0xf4, 0x9c,
  0x3b, 0xca, 0x57, 0xe0, 0x4d, 0xe6, 0xda, 0x32, 0xba, 0xaa, 0xc8, 0x99,
  0x28, 0x98, 0x3b, 0x96, 0xa2, 0x01, 0x31, 0x2c, 0x66, 0x6a, 0x9f, 0xdf,
  0x19, 0xbe, 0xd3, 0x47, 0xa2, 0xb9, 0xe7, 0x32, 0xa5, 0x3c, 0x79, 0x7f,
  0x1c, 0xf4, 0x75, 0x9e, 0x23, 0x24, 0xdc, 0x66, 0xd1, 0xfb, 0x39, 0x28,
  0x6d, 0xf0, 0xc2, 0xa2, 0xc7, 0xd6, 0x2c, 0x7f, 0x57, 0x55, 0xd1, 0x0e,
  0x0b, 0x08, 0x13, 0x53, 0xab, 0x57, 0x56, 0xd5, 0x28, 0xc8, 0x6e, 0xb0,
  0x6b, 0x49, 0xe6, 0xac, 0x8e, 0xb4, 0xb3, 0x2f, 0xf4, 0x11, 0x4f, 0x83,
  0x2a, 0x9e, 0xe2, 0x55, 0x3a, 0x59, 0x34, 0x3b, 0x3a, 0xc1, 0x5d, 0x30,
  0x2c, 0xda, 0xd0, 0x24, 0x97, 0xcc, 0x22, 0x3e, 0xf9, 0xa1, 0x66, 0x81,
  0xd1, 0xc1, 0xf6, 0x63, 0xb6, 0x1d, 0x5e, 0xe9, 0x5d, 0xd2, 0x0b, 0x37,
  0x1c, 0xf3, 0xe8, 0x49, 0xd4, 0x53, 0xa1, 0xaf, 0xc6, 0xeb, 0x0b, 0x7f,
  0xf9, 0x33, 0x46, 0x9b, 0x20, 0xc9, 0x1c, 0x4d, 0xa4, 0xe7, 0xdf, 0x9e,
  0x61, 0x0c, 0xbc, 0xa0, 0xf0, 0xca, 0x06, 0x48, 0x2c, 0xfd, 0xc5, 0x9c,
  0x2d, 0xb6, 0xd6, 0x0a, 0x43, 0x29, 0xc3, 0xe9, 0x5c, 0x7f, 0x4d, 0xe8,
  0xe9, 0xbe, 0x3c, 0x5c, 0xd8, 0x2c, 0xd9, 0xbc, 0xb0, 0xbc, 0x1d, 0xbb,
  0xa6, 0xfe, 0xff, 0xff, 0x04, 0x00, 0x00, 0x00, 0x40, 0x00, 0x00, 0x00,
  0xa4, 0x00, 0x00, 0x00, 0xbb, 0x00, 0x00, 0x00, 0xeb, 0xff, 0xff, 0xff,
  0x83, 0x00, 0x00, 0x00, 0xda, 0x00, 0x00, 0x00, 0x76, 0x00, 0x00, 0x00,
  0x8f, 0xff, 0xff, 0xff, 0x9c, 0x00, 0x00, 0x00, 0xee, 0x00, 0x00, 0x00,
  0xb4, 0x00, 0x00, 0x00, 0xac, 0xff, 0xff, 0xff, 0x77, 0x00, 0x00, 0x00,
  0xcb, 0x00, 0x00, 0x00, 0xfe, 0xff, 0xff, 0xff, 0x57, 0x00, 0x00, 0x00,
  0xca, 0xff, 0xff, 0xff, 0xf2, 0xfe, 0xff, 0xff, 0x04, 0x00, 0x00, 0x00,
  0x30, 0x00, 0x00, 0x00, 0x71, 0x38, 0xdb, 0x05, 0x5c, 0xe2, 0x9d, 0x7f,
  0x0c, 0x3d, 0x96, 0x99, 0x8d, 0xb2, 0xa0, 0xc1, 0x07, 0xbe, 0xea, 0x38,
  0xdd, 0xfb, 0x44, 0x30, 0x7f, 0xce, 0xb3, 0x93, 0xe8, 0x47, 0xdf, 0xa2,
  0xdb, 0x1c, 0x5a, 0xea, 0xe4, 0x4c, 0xa5, 0xb2, 0xb1, 0x7f, 0x3d, 0xe4,
  0x19, 0xc9, 0x5e, 0xd1, 0x2e, 0xff, 0xff, 0xff, 0x04, 0x00, 0x00, 0x00,
  0x0c, 0x00, 0x00, 0x00, 0x95, 0x00, 0x00, 0x00, 0xa6, 0xff, 0xff, 0xff,
  0x88, 0xff, 0xff, 0xff, 0x48, 0xf3, 0xff, 0xff, 0x4c, 0xf3, 0xff, 0xff,
  0x0f, 0x00, 0x00, 0x00, 0x4d, 0x4c, 0x49, 0x52, 0x20, 0x43, 0x6f, 0x6e,
  0x76, 0x65, 0x72, 0x74, 0x65, 0x64, 0x2e, 0x00, 0x01, 0x00, 0x00, 0x00,
  0x14, 0x00, 0x00, 0x00, 0x00, 0x00, 0x0e, 0x00, 0x18, 0x00, 0x14, 0x00,
  0x10, 0x00, 0x0c, 0x00, 0x08, 0x00, 0x04, 0x00, 0x0e, 0x00, 0x00, 0x00,
  0x14, 0x00, 0x00, 0x00, 0x1c, 0x00, 0x00, 0x00, 0x8c, 0x01, 0x00, 0x00,
  0x90, 0x01, 0x00, 0x00, 0x94, 0x01, 0x00, 0x00, 0x04, 0x00, 0x00, 0x00,
  0x6d, 0x61, 0x69, 0x6e, 0x00, 0x00, 0x00, 0x00, 0x06, 0x00, 0x00, 0x00,
  0x54, 0x01, 0x00, 0x00, 0x04, 0x01, 0x00, 0x00, 0xb8, 0x00, 0x00, 0x00,
  0x70, 0x00, 0x00, 0x00, 0x34, 0x00, 0x00, 0x00, 0x10, 0x00, 0x00, 0x00,
  0x00, 0x00, 0x0a, 0x00, 0x10, 0x00, 0x0c, 0x00, 0x08, 0x00, 0x04, 0x00,
  0x0a, 0x00, 0x00, 0x00, 0x0c, 0x00, 0x00, 0x00, 0x10, 0x00, 0x00, 0x00,
  0x03, 0x00, 0x00, 0x00, 0x01, 0x00, 0x00, 0x00, 0x0c, 0x00, 0x00, 0x00,
  0x01, 0x00, 0x00, 0x00, 0x0b, 0x00, 0x00, 0x00, 0x4a, 0xff, 0xff, 0xff,
  0x1c, 0x00, 0x00, 0x00, 0x00, 0x00, 0x00, 0x09, 0x1c, 0x00, 0x00, 0x00,
  0x20, 0x00, 0x00, 0x00, 0x02, 0x00, 0x00, 0x00, 0x00, 0x00, 0x06, 0x00,
  0x08, 0x00, 0x04, 0x00, 0x06, 0x00, 0x00, 0x00, 0x00, 0x00, 0x80, 0x3f,
  0x01, 0x00, 0x00, 0x00, 0x0b, 0x00, 0x00, 0x00, 0x01, 0x00, 0x00, 0x00,
  0x0a, 0x00, 0x00, 0x00, 0xca, 0xff, 0xff, 0xff, 0x14, 0x00, 0x00, 0x00,
  0x00, 0x00, 0x00, 0x08, 0x10, 0x00, 0x00, 0x00, 0x14, 0x00, 0x00, 0x00,
  0x01, 0x00, 0x00, 0x00, 0x38, 0xf4, 0xff, 0xff, 0x01, 0x00, 0x00, 0x00,
  0x0a, 0x00, 0x00, 0x00, 0x03, 0x00, 0x00, 0x00, 0x09, 0x00, 0x00, 0x00,
  0x02, 0x00, 0x00, 0x00, 0x01, 0x00, 0x00, 0x00, 0x00, 0x00, 0x0e, 0x00,
  0x18, 0x00, 0x14, 0x00, 0x10, 0x00, 0x0c, 0x00, 0x0b, 0x00, 0x04, 0x00,
  0x0e, 0x00, 0x00, 0x00, 0x14, 0x00, 0x00, 0x00, 0x00, 0x00, 0x00, 0x08,
  0x14, 0x00, 0x00, 0x00, 0x18, 0x00, 0x00, 0x00, 0x01, 0x00, 0x00, 0x00,
  0xb6, 0xff, 0xff, 0xff, 0x00, 0x00, 0x00, 0x01, 0x01, 0x00, 0x00, 0x00,
  0x09, 0x00, 0x00, 0x00, 0x03, 0x00, 0x00, 0x00, 0x08, 0x00, 0x00, 0x00,
  0x04, 0x00, 0x00, 0x00, 0x03, 0x00, 0x00, 0x00, 0x00, 0x00, 0x0e, 0x00,
  0x1a, 0x00, 0x14, 0x00, 0x10, 0x00, 0x0c, 0x00, 0x0b, 0x00, 0x04, 0x00,
  0x0e, 0x00, 0x00, 0x00, 0x1c, 0x00, 0x00, 0x00, 0x00, 0x00, 0x00, 0x08,
  0x1c, 0x00, 0x00, 0x00, 0x20, 0x00, 0x00, 0x00, 0x01, 0x00, 0x00, 0x00,
  0x00, 0x00, 0x06, 0x00, 0x08, 0x00, 0x07, 0x00, 0x06, 0x00, 0x00, 0x00,
  0x00, 0x00, 0x00, 0x01, 0x01, 0x00, 0x00, 0x00, 0x08, 0x00, 0x00, 0x00,
  0x03, 0x00, 0x00, 0x00, 0x07, 0x00, 0x00, 0x00, 0x06, 0x00, 0x00, 0x00,
  0x05, 0x00, 0x00, 0x00, 0x00, 0x00, 0x0a, 0x00, 0x0c, 0x00, 0x00, 0x00,
  0x08, 0x00, 0x04, 0x00, 0x0a, 0x00, 0x00, 0x00, 0x08, 0x00, 0x00, 0x00,
  0x0c, 0x00, 0x00, 0x00, 0x01, 0x00, 0x00, 0x00, 0x07, 0x00, 0x00, 0x00,
  0x01, 0x00, 0x00, 0x00, 0x00, 0x00, 0x00, 0x00, 0x01, 0x00, 0x00, 0x00,
  0x0c, 0x00, 0x00, 0x00, 0x01, 0x00, 0x00, 0x00, 0x00, 0x00, 0x00, 0x00,
  0x0d, 0x00, 0x00, 0x00, 0xb0, 0x0a, 0x00, 0x00, 0x14, 0x0a, 0x00, 0x00,
  0x7c, 0x09, 0x00, 0x00, 0x68, 0x08, 0x00, 0x00, 0x4c, 0x07, 0x00, 0x00,
  0x78, 0x05, 0x00, 0x00, 0x9c, 0x03, 0x00, 0x00, 0x28, 0x03, 0x00, 0x00,
  0x4c, 0x02, 0x00, 0x00, 0x88, 0x01, 0x00, 0x00, 0xe4, 0x00, 0x00, 0x00,
  0x60, 0x00, 0x00, 0x00, 0x04, 0x00, 0x00, 0x00, 0x9a, 0xf5, 0xff, 0xff,
  0x00, 0x00, 0x00, 0x01, 0x14, 0x00, 0x00, 0x00, 0x1c, 0x00, 0x00, 0x00,
  0x1c, 0x00, 0x00, 0x00, 0x0d, 0x00, 0x00, 0x00, 0x34, 0x00, 0x00, 0x00,
  0x02, 0x00, 0x00, 0x00, 0xff, 0xff, 0xff, 0xff, 0x03, 0x00, 0x00, 0x00,
  0x84, 0xf5, 0xff, 0xff, 0x1b, 0x00, 0x00, 0x00, 0x53, 0x74, 0x61, 0x74,
  0x65, 0x66, 0x75, 0x6c, 0x50, 0x61, 0x72, 0x74, 0x69, 0x74, 0x69, 0x6f,
  0x6e, 0x65, 0x64, 0x43, 0x61, 0x6c, 0x6c, 0x5f, 0x31, 0x3a, 0x30, 0x00,
  0x02, 0x00, 0x00, 0x00, 0x01, 0x00, 0x00, 0x00, 0x03, 0x00, 0x00, 0x00,
  0x5e, 0xfd, 0xff, 0xff, 0x00, 0x00, 0x00, 0x01, 0x18, 0x00, 0x00, 0x00,
  0x20, 0x00, 0x00, 0x00, 0x40, 0x00, 0x00, 0x00, 0x0c, 0x00, 0x00, 0x00,
  0x00, 0x00, 0x00, 0x09, 0x58, 0x00, 0x00, 0x00, 0x02, 0x00, 0x00, 0x00,
  0xff, 0xff, 0xff, 0xff, 0x03, 0x00, 0x00, 0x00, 0x84, 0xf6, 0xff, 0xff,
  0x08, 0x00, 0x00, 0x00, 0x14, 0x00, 0x00, 0x00, 0x01, 0x00, 0x00, 0x00,
  0x80, 0xff, 0xff, 0xff, 0xff, 0xff, 0xff, 0xff, 0x00, 0x00, 0x00, 0x00,
  0x01, 0x00, 0x00, 0x00, 0x00, 0x00, 0x80, 0x3b, 0x1c, 0x00, 0x00, 0x00,
  0x53, 0x74, 0x61, 0x74, 0x65, 0x66, 0x75, 0x6c, 0x50, 0x61, 0x72, 0x74,
  0x69, 0x74, 0x69, 0x6f, 0x6e, 0x65, 0x64, 0x43, 0x61, 0x6c, 0x6c, 0x5f,
  0x31, 0x3a, 0x30, 0x31, 0x00, 0x00, 0x00, 0x00, 0x02, 0x00, 0x00, 0x00,
  0x01, 0x00, 0x00, 0x00, 0x03, 0x00, 0x00, 0x00, 0xde, 0xfd, 0xff, 0xff,
  0x00, 0x00, 0x00, 0x01, 0x18, 0x00, 0x00, 0x00, 0x20, 0x00, 0x00, 0x00,
  0x3c, 0x00, 0x00, 0x00, 0x0b, 0x00, 0x00, 0x00, 0x00, 0x00, 0x00, 0x09,
  0x78, 0x00, 0x00, 0x00, 0x02, 0x00, 0x00, 0x00, 0xff, 0xff, 0xff, 0xff,
  0x03, 0x00, 0x00, 0x00, 0x04, 0xf7, 0xff, 0xff, 0x08, 0x00, 0x00, 0x00,
  0x10, 0x00, 0x00, 0x00, 0x01, 0x00, 0x00, 0x00, 0xd2, 0xff, 0xff, 0xff,
  0xff, 0xff, 0xff, 0xff, 0x01, 0x00, 0x00, 0x00, 0x32, 0xb4, 0x07, 0x3e,
  0x42, 0x00, 0x00, 0x00, 0x73, 0x65, 0x71, 0x75, 0x65, 0x6e, 0x74, 0x69,
  0x61, 0x6c, 0x5f, 0x39, 0x5f, 0x31, 0x2f, 0x64, 0x65, 0x6e, 0x73, 0x65,
  0x5f, 0x32, 0x39, 0x5f, 0x31, 0x2f, 0x4d, 0x61, 0x74, 0x4d, 0x75, 0x6c,
  0x3b, 0x73, 0x65, 0x71, 0x75, 0x65, 0x6e, 0x74, 0x69, 0x61, 0x6c, 0x5f,
  0x39, 0x5f, 0x31, 0x2f, 0x64, 0x65, 0x6e, 0x73, 0x65, 0x5f, 0x32, 0x39,
  0x5f, 0x31, 0x2f, 0x42, 0x69, 0x61, 0x73, 0x41, 0x64, 0x64, 0x00, 0x00,
  0x02, 0x00, 0x00, 0x00, 0x01, 0x00, 0x00, 0x00, 0x03, 0x00, 0x00, 0x00,
  0x7e, 0xfe, 0xff, 0xff, 0x00, 0x00, 0x00, 0x01, 0x18, 0x00, 0x00, 0x00,
  0x20, 0x00, 0x00, 0x00, 0x3c, 0x00, 0x00, 0x00, 0x0a, 0x00, 0x00, 0x00,
  0x00, 0x00, 0x00, 0x09, 0x98, 0x00, 0x00, 0x00, 0x02, 0x00, 0x00, 0x00,
  0xff, 0xff, 0xff, 0xff, 0x10, 0x00, 0x00, 0x00, 0xa4, 0xf7, 0xff, 0xff,
  0x08, 0x00, 0x00, 0x00, 0x10, 0x00, 0x00, 0x00, 0x01, 0x00, 0x00, 0x00,
  0x80, 0xff, 0xff, 0xff, 0xff, 0xff, 0xff, 0xff, 0x01, 0x00, 0x00, 0x00,
  0x14, 0xc1, 0xa7, 0x3d, 0x61, 0x00, 0x00, 0x00, 0x73, 0x65, 0x71, 0x75,
  0x65, 0x6e, 0x74, 0x69, 0x61, 0x6c, 0x5f, 0x39, 0x5f, 0x31, 0x2f, 0x64,
  0x65, 0x6e, 0x73, 0x65, 0x5f, 0x32, 0x38, 0x5f, 0x31, 0x2f, 0x4d, 0x61,
  0x74, 0x4d, 0x75, 0x6c, 0x3b, 0x73, 0x65, 0x71, 0x75, 0x65, 0x6e, 0x74,
  0x69, 0x61, 0x6c, 0x5f, 0x39, 0x5f, 0x31, 0x2f, 0x64, 0x65, 0x6e, 0x73,
  0x65, 0x5f, 0x32, 0x38, 0x5f, 0x31, 0x2f, 0x52, 0x65, 0x6c, 0x75, 0x3b,
  0x73, 0x65, 0x71, 0x75, 0x65, 0x6e, 0x74, 0x69, 0x61, 0x6c, 0x5f, 0x39,
  0x5f, 0x31, 0x2f, 0x64, 0x65, 0x6e, 0x73, 0x65, 0x5f, 0x32, 0x38, 0x5f,
  0x31, 0x2f, 0x42, 0x69, 0x61, 0x73, 0x41, 0x64, 0x64, 0x00, 0x00, 0x00,
  0x02, 0x00, 0x00, 0x00, 0x01, 0x00, 0x00, 0x00, 0x10, 0x00, 0x00, 0x00,
  0x3e, 0xff, 0xff, 0xff, 0x00, 0x00, 0x00, 0x01, 0x18, 0x00, 0x00, 0x00,
  0x20, 0x00, 0x00, 0x00, 0x3c, 0x00, 0x00, 0x00, 0x09, 0x00, 0x00, 0x00,
  0x00, 0x00, 0x00, 0x09, 0x98, 0x00, 0x00, 0x00, 0x02, 0x00, 0x00, 0x00,
  0xff, 0xff, 0xff, 0xff, 0x20, 0x00, 0x00, 0x00, 0x64, 0xf8, 0xff, 0xff,
  0x08, 0x00, 0x00, 0x00, 0x10, 0x00, 0x00, 0x00, 0x01, 0x00, 0x00, 0x00,
  0x80, 0xff, 0xff, 0xff, 0xff, 0xff, 0xff, 0xff, 0x01, 0x00, 0x00, 0x00,
  0xe5, 0xe6, 0xf9, 0x3d, 0x61, 0x00, 0x00, 0x00, 0x73, 0x65, 0x71, 0x75,
  0x65, 0x6e, 0x74, 0x69, 0x61, 0x6c, 0x5f, 0x39, 0x5f, 0x31, 0x2f, 0x64,
  0x65, 0x6e, 0x73, 0x65, 0x5f, 0x32, 0x37, 0x5f, 0x31, 0x2f, 0x4d, 0x61,
  0x74, 0x4d, 0x75, 0x6c, 0x3b, 0x73, 0x65, 0x71, 0x75, 0x65, 0x6e, 0x74,
  0x69, 0x61, 0x6c, 0x5f, 0x39, 0x5f, 0x31, 0x2f, 0x64, 0x65, 0x6e, 0x73,
  0x65, 0x5f, 0x32, 0x37, 0x5f, 0x31, 0x2f, 0x52, 0x65, 0x6c, 0x75, 0x3b,
  0x73, 0x65, 0x71, 0x75, 0x65, 0x6e, 0x74, 0x69, 0x61, 0x6c, 0x5f, 0x39,
  0x5f, 0x31, 0x2f, 0x64, 0x65, 0x6e, 0x73, 0x65, 0x5f, 0x32, 0x37, 0x5f,
  0x31, 0x2f, 0x42, 0x69, 0x61, 0x73, 0x41, 0x64, 0x64, 0x00, 0x00, 0x00,
  0x02, 0x00, 0x00, 0x00, 0x01, 0x00, 0x00, 0x00, 0x20, 0x00, 0x00, 0x00,
  0x00, 0x00, 0x16, 0x00, 0x20, 0x00, 0x1c, 0x00, 0x1b, 0x00, 0x14, 0x00,
  0x10, 0x00, 0x0c, 0x00, 0x00, 0x00, 0x00, 0x00, 0x08, 0x00, 0x07, 0x00,
  0x16, 0x00, 0x00, 0x00, 0x00, 0x00, 0x00, 0x01, 0x18, 0x00, 0x00, 0x00,
  0x20, 0x00, 0x00, 0x00, 0x40, 0x00, 0x00, 0x00, 0x08, 0x00, 0x00, 0x00,
  0x00, 0x00, 0x00, 0x09, 0x48, 0x00, 0x00, 0x00, 0x02, 0x00, 0x00, 0x00,
  0xff, 0xff, 0xff, 0xff, 0x3c, 0x00, 0x00, 0x00, 0x3c, 0xf9, 0xff, 0xff,
  0x08, 0x00, 0x00, 0x00, 0x14, 0x00, 0x00, 0x00, 0x01, 0x00, 0x00, 0x00,
  0x0c, 0x00, 0x00, 0x00, 0x00, 0x00, 0x00, 0x00, 0x00, 0x00, 0x00, 0x00,
  0x01, 0x00, 0x00, 0x00, 0x5c, 0x00, 0x0a, 0x3f, 0x0c, 0x00, 0x00, 0x00,
  0x74, 0x66, 0x6c, 0x2e, 0x71, 0x75, 0x61, 0x6e, 0x74, 0x69, 0x7a, 0x65,
  0x00, 0x00, 0x00, 0x00, 0x02, 0x00, 0x00, 0x00, 0x01, 0x00, 0x00, 0x00,
  0x3c, 0x00, 0x00, 0x00, 0xb2, 0xf9, 0xff, 0xff, 0x00, 0x00, 0x00, 0x01,
  0x14, 0x00, 0x00, 0x00, 0xa8, 0x01, 0x00, 0x00, 0x07, 0x00, 0x00, 0x00,
  0x00, 0x00, 0x00, 0x09, 0xb4, 0x01, 0x00, 0x00, 0x9c, 0xf9, 0xff, 0xff,
  0x08, 0x00, 0x00, 0x00, 0x0c, 0x01, 0x00, 0x00, 0x20, 0x00, 0x00, 0x00,
  0x00, 0x00, 0x00, 0x00, 0x00, 0x00, 0x00, 0x00, 0x00, 0x00, 0x00, 0x00,
  0x00, 0x00, 0x00, 0x00, 0x00, 0x00, 0x00, 0x00, 0x00, 0x00, 0x00, 0x00,
  0x00, 0x00, 0x00, 0x00, 0x00, 0x00, 0x00, 0x00, 0x00, 0x00, 0x00, 0x00,
  0x00, 0x00, 0x00, 0x00, 0x00, 0x00, 0x00, 0x00, 0x00, 0x00, 0x00, 0x00,
  0x00, 0x00, 0x00, 0x00, 0x00, 0x00, 0x00, 0x00, 0x00, 0x00, 0x00, 0x00,
  0x00, 0x00, 0x00, 0x00, 0x00, 0x00, 0x00, 0x00, 0x00, 0x00, 0x00, 0x00,
  0x00, 0x00, 0x00, 0x00, 0x00, 0x00, 0x00, 0x00, 0x00, 0x00, 0x00, 0x00,
  0x00, 0x00, 0x00, 0x00, 0x00, 0x00, 0x00, 0x00, 0x00, 0x00, 0x00, 0x00,
  0x00, 0x00, 0x00, 0x00, 0x00, 0x00, 0x00, 0x00, 0x00, 0x00, 0x00, 0x00,
  0x00, 0x00, 0x00, 0x00, 0x00, 0x00, 0x00, 0x00, 0x00, 0x00, 0x00, 0x00,
  0x00, 0x00, 0x00, 0x00, 0x00, 0x00, 0x00, 0x00, 0x00, 0x00, 0x00, 0x00,
  0x00, 0x00, 0x00, 0x00, 0x00, 0x00, 0x00, 0x00, 0x00, 0x00, 0x00, 0x00,
  0x00, 0x00, 0x00, 0x00, 0x00, 0x00, 0x00, 0x00, 0x00, 0x00, 0x00, 0x00,
  0x00, 0x00, 0x00, 0x00, 0x00, 0x00, 0x00, 0x00, 0x00, 0x00, 0x00, 0x00,
  0x00, 0x00, 0x00, 0x00, 0x00, 0x00, 0x00, 0x00, 0x00, 0x00, 0x00, 0x00,
  0x00, 0x00, 0x00, 0x00, 0x00, 0x00, 0x00, 0x00, 0x00, 0x00, 0x00, 0x00,
  0x00, 0x00, 0x00, 0x00, 0x00, 0x00, 0x00, 0x00, 0x00, 0x00, 0x00, 0x00,
  0x00, 0x00, 0x00, 0x00, 0x00, 0x00, 0x00, 0x00, 0x00, 0x00, 0x00, 0x00,
  0x00, 0x00, 0x00, 0x00, 0x00, 0x00, 0x00, 0x00, 0x00, 0x00, 0x00, 0x00,
  0x00, 0x00, 0x00, 0x00, 0x00, 0x00, 0x00, 0x00, 0x00, 0x00, 0x00, 0x00,
  0x00, 0x00, 0x00, 0x00, 0x00, 0x00, 0x00, 0x00, 0x00, 0x00, 0x00, 0x00,
  0x00, 0x00, 0x00, 0x00, 0x00, 0x00, 0x00, 0x00, 0x20, 0x00, 0x00, 0x00,
  0xcb, 0x0f, 0x1f, 0x3b, 0x0c, 0xa7, 0x1e, 0x3b, 0x88, 0xbe, 0x37, 0x3b,
  0x50, 0xa3, 0x2c, 0x3b, 0x11, 0x6c, 0x1b, 0x3b, 0x4e, 0x2c, 0x2a, 0x3b,
  0x31, 0xe7, 0x3c, 0x3b, 0x5a, 0x7d, 0x2c, 0x3b, 0xbb, 0x6c, 0x1d, 0x3b,
  0x28, 0xbb, 0x1a, 0x3b, 0x4c, 0xca, 0x15, 0x3b, 0x71, 0xfc, 0x25, 0x3b,
  0xab, 0x54, 0x1c, 0x3b, 0x6f, 0x34, 0x1a, 0x3b, 0x37, 0xe4, 0x1c, 0x3b,
  0xe8, 0xe4, 0x18, 0x3b, 0x9c, 0xe8, 0x13, 0x3b, 0x3e, 0x80, 0x4e, 0x3b,
  0x20, 0x9f, 0x16, 0x3b, 0x3d, 0xb8, 0x05, 0x3b, 0xd0, 0x99, 0x25, 0x3b,
  0x14, 0x71, 0x2b, 0x3b, 0xa0, 0x44, 0x60, 0x3b, 0x3f, 0xcd, 0x29, 0x3b,
  0xbe, 0x8d, 0x4b, 0x3b, 0xc8, 0x97, 0x2d, 0x3b, 0xc9, 0x77, 0x59, 0x3b,
  0x54, 0xf3, 0x21, 0x3b, 0x33, 0x9f, 0x1a, 0x3b, 0xa9, 0xf8, 0x2b, 0x3b,
  0x68, 0x95, 0x34, 0x3b, 0x51, 0x38, 0x16, 0x3b, 0x12, 0x00, 0x00, 0x00,
  0x74, 0x66, 0x6c, 0x2e, 0x70, 0x73, 0x65, 0x75, 0x64, 0x6f, 0x5f, 0x71,
  0x63, 0x6f, 0x6e, 0x73, 0x74, 0x35, 0x00, 0x00, 0x02, 0x00, 0x00, 0x00,
  0x20, 0x00, 0x00, 0x00, 0x3c, 0x00, 0x00, 0x00, 0x8a, 0xfb, 0xff, 0xff,
  0x00, 0x00, 0x00, 0x01, 0x14, 0x00, 0x00, 0x00, 0xa4, 0x01, 0x00, 0x00,
  0x06, 0x00, 0x00, 0x00, 0x00, 0x00, 0x00, 0x02, 0xb0, 0x01, 0x00, 0x00,
  0x74, 0xfb, 0xff, 0xff, 0x08, 0x00, 0x00, 0x00, 0x08, 0x01, 0x00, 0x00,
  0x20, 0x00, 0x00, 0x00, 0x00, 0x00, 0x00, 0x00, 0x00, 0x00, 0x00, 0x00,
  0x00, 0x00, 0x00, 0x00, 0x00, 0x00, 0x00, 0x00, 0x00, 0x00, 0x00, 0x00,
  0x00, 0x00, 0x00, 0x00, 0x00, 0x00, 0x00, 0x00, 0x00, 0x00, 0x00, 0x00,
  0x00, 0x00, 0x00, 0x00, 0x00, 0x00, 0x00, 0x00, 0x00, 0x00, 0x00, 0x00,
  0x00, 0x00, 0x00, 0x00, 0x00, 0x00, 0x00, 0x00, 0x00, 0x00, 0x00, 0x00,
  0x00, 0x00, 0x00, 0x00, 0x00, 0x00, 0x00, 0x00, 0x00, 0x00, 0x00, 0x00,
  0x00, 0x00, 0x00, 0x00, 0x00, 0x00, 0x00, 0x00, 0x00, 0x00, 0x00, 0x00,
  0x00, 0x00, 0x00, 0x00, 0x00, 0x00, 0x00, 0x00, 0x00, 0x00, 0x00, 0x00,
  0x00, 0x00, 0x00, 0x00, 0x00, 0x00, 0x00, 0x00, 0x00, 0x00, 0x00, 0x00,
  0x00, 0x00, 0x00, 0x00, 0x00, 0x00, 0x00, 0x00, 0x00, 0x00, 0x00, 0x00,
  0x00, 0x00, 0x00, 0x00, 0x00, 0x00, 0x00, 0x00, 0x00, 0x00, 0x00, 0x00,
  0x00, 0x00, 0x00, 0x00, 0x00, 0x00, 0x00, 0x00, 0x00, 0x00, 0x00, 0x00,
  0x00, 0x00, 0x00, 0x00, 0x00, 0x00, 0x00, 0x00, 0x00, 0x00, 0x00, 0x00,
  0x00, 0x00, 0x00, 0x00, 0x00, 0x00, 0x00, 0x00, 0x00, 0x00, 0x00, 0x00,
  0x00, 0x00, 0x00, 0x00, 0x00, 0x00, 0x00, 0x00, 0x00, 0x00, 0x00, 0x00,
  0x00, 0x00, 0x00, 0x00, 0x00, 0x00, 0x00, 0x00, 0x00, 0x00, 0x00, 0x00,
  0x00, 0x00, 0x00, 0x00, 0x00, 0x00, 0x00, 0x00, 0x00, 0x00, 0x00, 0x00,
  0x00, 0x00, 0x00, 0x00, 0x00, 0x00, 0x00, 0x00, 0x00, 0x00, 0x00, 0x00,
  0x00, 0x00, 0x00, 0x00, 0x00, 0x00, 0x00, 0x00, 0x00, 0x00, 0x00, 0x00,
  0x00, 0x00, 0x00, 0x00, 0x00, 0x00, 0x00, 0x00, 0x00, 0x00, 0x00, 0x00,
  0x00, 0x00, 0x00, 0x00, 0x00, 0x00, 0x00, 0x00, 0x00, 0x00, 0x00, 0x00,
  0x00, 0x00, 0x00, 0x00, 0x00, 0x00, 0x00, 0x00, 0x20, 0x00, 0x00, 0x00,
  0x79, 0x7d, 0xab, 0x3a, 0x8b, 0x0c, 0xab, 0x3a, 0xef, 0x19, 0xc6, 0x3a,
  0x8e, 0x20, 0xba, 0x3a, 0xf2, 0x90, 0xa7, 0x3a, 0x3e, 0x78, 0xb7, 0x3a,
  0xc9, 0xa9, 0xcb, 0x3a, 0xa1, 0xf7, 0xb9, 0x3a, 0xab, 0xb9, 0xa9, 0x3a,
  0x36, 0xd2, 0xa6, 0x3a, 0x86, 0x7e, 0xa1, 0x3a, 0xa1, 0xf4, 0xb2, 0x3a,
  0xb9, 0x8b, 0xa8, 0x3a, 0xf7, 0x40, 0xa6, 0x3a, 0x7c, 0x26, 0xa9, 0x3a,
  0x38, 0xd7, 0xa4, 0x3a, 0x32, 0x77, 0x9f, 0x3a, 0xd7, 0xa2, 0xde, 0x3a,
  0xfb, 0x63, 0xa2, 0x3a, 0x02, 0x2b, 0x90, 0x3a, 0x4b, 0x8a, 0xb2, 0x3a,
  0x65, 0xd6, 0xb8, 0x3a, 0x9e, 0xca, 0xf1, 0x3a, 0xc2, 0x11, 0xb7, 0x3a,
  0x63, 0x75, 0xdb, 0x3a, 0x20, 0x28, 0xbb, 0x3a, 0xc1, 0x75, 0xea, 0x3a,
  0xcb, 0x9a, 0xae, 0x3a, 0x12, 0xb4, 0xa6, 0x3a, 0x92, 0x68, 0xb9, 0x3a,
  0x96, 0xb1, 0xc2, 0x3a, 0x23, 0xf5, 0xa1, 0x3a, 0x12, 0x00, 0x00, 0x00,
  0x74, 0x66, 0x6c, 0x2e, 0x70, 0x73, 0x65, 0x75, 0x64, 0x6f, 0x5f, 0x71,
  0x63, 0x6f, 0x6e, 0x73, 0x74, 0x34, 0x00, 0x00, 0x01, 0x00, 0x00, 0x00,
  0x20, 0x00, 0x00, 0x00, 0x5a, 0xfd, 0xff, 0xff, 0x00, 0x00, 0x00, 0x01,
  0x14, 0x00, 0x00, 0x00, 0xe8, 0x00, 0x00, 0x00, 0x05, 0x00, 0x00, 0x00,
  0x00, 0x00, 0x00, 0x09, 0xf4, 0x00, 0x00, 0x00, 0x44, 0xfd, 0xff, 0xff,
  0x08, 0x00, 0x00, 0x00, 0x8c, 0x00, 0x00, 0x00, 0x10, 0x00, 0x00, 0x00,
  0x00, 0x00, 0x00, 0x00, 0x00, 0x00, 0x00, 0x00, 0x00, 0x00, 0x00, 0x00,
  0x00, 0x00, 0x00, 0x00, 0x00, 0x00, 0x00, 0x00, 0x00, 0x00, 0x00, 0x00,
  0x00, 0x00, 0x00, 0x00, 0x00, 0x00, 0x00, 0x00, 0x00, 0x00, 0x00, 0x00,
  0x00, 0x00, 0x00, 0x00, 0x00, 0x00, 0x00, 0x00, 0x00, 0x00, 0x00, 0x00,
  0x00, 0x00, 0x00, 0x00, 0x00, 0x00, 0x00, 0x00, 0x00, 0x00, 0x00, 0x00,
  0x00, 0x00, 0x00, 0x00, 0x00, 0x00, 0x00, 0x00, 0x00, 0x00, 0x00, 0x00,
  0x00, 0x00, 0x00, 0x00, 0x00, 0x00, 0x00, 0x00, 0x00, 0x00, 0x00, 0x00,
  0x00, 0x00, 0x00, 0x00, 0x00, 0x00, 0x00, 0x00, 0x00, 0x00, 0x00, 0x00,
  0x00, 0x00, 0x00, 0x00, 0x00, 0x00, 0x00, 0x00, 0x00, 0x00, 0x00, 0x00,
  0x00, 0x00, 0x00, 0x00, 0x00, 0x00, 0x00, 0x00, 0x00, 0x00, 0x00, 0x00,
  0x00, 0x00, 0x00, 0x00, 0x00, 0x00, 0x00, 0x00, 0x00, 0x00, 0x00, 0x00,
  0x10, 0x00, 0x00, 0x00, 0xea, 0x3b, 0x85, 0x3b, 0x4a, 0xe4, 0x83, 0x3b,
  0xc9, 0x74, 0x53, 0x3b, 0xf7, 0xd5, 0x88, 0x3b, 0x0d, 0xec, 0x57, 0x3b,
  0x9d, 0x26, 0x38, 0x3b, 0xac, 0xa8, 0x43, 0x3b, 0x10, 0xe5, 0x8b, 0x3b,
  0xfb, 0xdf, 0x7f, 0x3b, 0x64, 0x70, 0x4b, 0x3b, 0x12, 0x64, 0x4a, 0x3b,
  0x81, 0xae, 0x5f, 0x3b, 0x1a, 0x14, 0x52, 0x3b, 0x21, 0x43, 0x77, 0x3b,
  0xe3, 0x6c, 0x66, 0x3b, 0x47, 0xb5, 0x7f, 0x3b, 0x12, 0x00, 0x00, 0x00,
  0x74, 0x66, 0x6c, 0x2e, 0x70, 0x73, 0x65, 0x75, 0x64, 0x6f, 0x5f, 0x71,
  0x63, 0x6f, 0x6e, 0x73, 0x74, 0x33, 0x00, 0x00, 0x02, 0x00, 0x00, 0x00,
  0x10, 0x00, 0x00, 0x00, 0x20, 0x00, 0x00, 0x00, 0x72, 0xfe, 0xff, 0xff,
  0x00, 0x00, 0x00, 0x01, 0x14, 0x00, 0x00, 0x00, 0xe4, 0x00, 0x00, 0x00,
  0x04, 0x00, 0x00, 0x00, 0x00, 0x00, 0x00, 0x02, 0xf0, 0x00, 0x00, 0x00,
  0x5c, 0xfe, 0xff, 0xff, 0x08, 0x00, 0x00, 0x00, 0x88, 0x00, 0x00, 0x00,
  0x10, 0x00, 0x00, 0x00, 0x00, 0x00, 0x00, 0x00, 0x00, 0x00, 0x00, 0x00,
  0x00, 0x00, 0x00, 0x00, 0x00, 0x00, 0x00, 0x00, 0x00, 0x00, 0x00, 0x00,
  0x00, 0x00, 0x00, 0x00, 0x00, 0x00, 0x00, 0x00, 0x00, 0x00, 0x00, 0x00,
  0x00, 0x00, 0x00, 0x00, 0x00, 0x00, 0x00, 0x00, 0x00, 0x00, 0x00, 0x00,
  0x00, 0x00, 0x00, 0x00, 0x00, 0x00, 0x00, 0x00, 0x00, 0x00, 0x00, 0x00,
  0x00, 0x00, 0x00, 0x00, 0x00, 0x00, 0x00, 0x00, 0x00, 0x00, 0x00, 0x00,
  0x00, 0x00, 0x00, 0x00, 0x00, 0x00, 0x00, 0x00, 0x00, 0x00, 0x00, 0x00,
  0x00, 0x00, 0x00, 0x00, 0x00, 0x00, 0x00, 0x00, 0x00, 0x00, 0x00, 0x00,
  0x00, 0x00, 0x00, 0x00, 0x00, 0x00, 0x00, 0x00, 0x00, 0x00, 0x00, 0x00,
  0x00, 0x00, 0x00, 0x00, 0x00, 0x00, 0x00, 0x00, 0x00, 0x00, 0x00, 0x00,
  0x00, 0x00, 0x00, 0x00, 0x00, 0x00, 0x00, 0x00, 0x00, 0x00, 0x00, 0x00,
  0x10, 0x00, 0x00, 0x00, 0x72, 0x0f, 0x02, 0x3a, 0x01, 0xc0, 0x00, 0x3a,
  0x50, 0x6b, 0xce, 0x39, 0x88, 0x93, 0x05, 0x3a, 0x58, 0xc7, 0xd2, 0x39,
  0xa6, 0xc3, 0xb3, 0x39, 0x88, 0xff, 0xbe, 0x39, 0xfa, 0x8f, 0x08, 0x3a,
  0xa3, 0xc7, 0xf9, 0x39, 0xce, 0x97, 0xc6, 0x39, 0xe0, 0x91, 0xc5, 0x39,
  0x7a, 0x5a, 0xda, 0x39, 0x07, 0x13, 0xcd, 0x39, 0x4f, 0x5f, 0xf1, 0x39,
  0xbd, 0xef, 0xe0, 0x39, 0xf4, 0x9d, 0xf9, 0x39, 0x12, 0x00, 0x00, 0x00,
  0x74, 0x66, 0x6c, 0x2e, 0x70, 0x73, 0x65, 0x75, 0x64, 0x6f, 0x5f, 0x71,
  0x63, 0x6f, 0x6e, 0x73, 0x74, 0x32, 0x00, 0x00, 0x01, 0x00, 0x00, 0x00,
  0x10, 0x00, 0x00, 0x00, 0x82, 0xff, 0xff, 0xff, 0x00, 0x00, 0x00, 0x01,
  0x14, 0x00, 0x00, 0x00, 0x4c, 0x00, 0x00, 0x00, 0x03, 0x00, 0x00, 0x00,
  0x00, 0x00, 0x00, 0x09, 0x58, 0x00, 0x00, 0x00, 0x6c, 0xff, 0xff, 0xff,
  0x08, 0x00, 0x00, 0x00, 0x24, 0x00, 0x00, 0x00, 0x03, 0x00, 0x00, 0x00,
  0x00, 0x00, 0x00, 0x00, 0x00, 0x00, 0x00, 0x00, 0x00, 0x00, 0x00, 0x00,
  0x00, 0x00, 0x00, 0x00, 0x00, 0x00, 0x00, 0x00, 0x00, 0x00, 0x00, 0x00,
  0x00, 0x00, 0x00, 0x00, 0x03, 0x00, 0x00, 0x00, 0x73, 0x50, 0x9b, 0x3b,
  0x99, 0x5b, 0xb2, 0x3b, 0xba, 0x2a, 0x9e, 0x3b, 0x12, 0x00, 0x00, 0x00,
  0x74, 0x66, 0x6c, 0x2e, 0x70, 0x73, 0x65, 0x75, 0x64, 0x6f, 0x5f, 0x71,
  0x63, 0x6f, 0x6e, 0x73, 0x74, 0x31, 0x00, 0x00, 0x02, 0x00, 0x00, 0x00,
  0x03, 0x00, 0x00, 0x00, 0x10, 0x00, 0x00, 0x00, 0x00, 0x00, 0x16, 0x00,
  0x1c, 0x00, 0x18, 0x00, 0x17, 0x00, 0x10, 0x00, 0x0c, 0x00, 0x08, 0x00,
  0x00, 0x00, 0x00, 0x00, 0x00, 0x00, 0x07, 0x00, 0x16, 0x00, 0x00, 0x00,
  0x00, 0x00, 0x00, 0x01, 0x20, 0x00, 0x00, 0x00, 0x54, 0x00, 0x00, 0x00,
  0x02, 0x00, 0x00, 0x00, 0x00, 0x00, 0x00, 0x02, 0x60, 0x00, 0x00, 0x00,
  0x0c, 0x00, 0x0c, 0x00, 0x00, 0x00, 0x00, 0x00, 0x08, 0x00, 0x04, 0x00,
  0x0c, 0x00, 0x00, 0x00, 0x08, 0x00, 0x00, 0x00, 0x20, 0x00, 0x00, 0x00,
  0x03, 0x00, 0x00, 0x00, 0x00, 0x00, 0x00, 0x00, 0x00, 0x00, 0x00, 0x00,
  0x00, 0x00, 0x00, 0x00, 0x00, 0x00, 0x00, 0x00, 0x00, 0x00, 0x00, 0x00,
  0x00, 0x00, 0x00, 0x00, 0x03, 0x00, 0x00, 0x00, 0x3e, 0x8d, 0xcb, 0x39,
  0x8c, 0xc0, 0xe9, 0x39, 0x54, 0x4a, 0xcf, 0x39, 0x11, 0x00, 0x00, 0x00,
  0x74, 0x66, 0x6c, 0x2e, 0x70, 0x73, 0x65, 0x75, 0x64, 0x6f, 0x5f, 0x71,
  0x63, 0x6f, 0x6e, 0x73, 0x74, 0x00, 0x00, 0x00, 0x01, 0x00, 0x00, 0x00,
  0x03, 0x00, 0x00, 0x00, 0x00, 0x00, 0x16, 0x00, 0x1c, 0x00, 0x18, 0x00,
  0x00, 0x00, 0x14, 0x00, 0x10, 0x00, 0x0c, 0x00, 0x00, 0x00, 0x00, 0x00,
  0x08, 0x00, 0x07, 0x00, 0x16, 0x00, 0x00, 0x00, 0x00, 0x00, 0x00, 0x01,
  0x14, 0x00, 0x00, 0x00, 0x20, 0x00, 0x00, 0x00, 0x20, 0x00, 0x00, 0x00,
  0x01, 0x00, 0x00, 0x00, 0x3c, 0x00, 0x00, 0x00, 0x02, 0x00, 0x00, 0x00,
  0xff, 0xff, 0xff, 0xff, 0x3c, 0x00, 0x00, 0x00, 0x04, 0x00, 0x04, 0x00,
  0x04, 0x00, 0x00, 0x00, 0x1f, 0x00, 0x00, 0x00, 0x73, 0x65, 0x72, 0x76,
  0x69, 0x6e, 0x67, 0x5f, 0x64, 0x65, 0x66, 0x61, 0x75, 0x6c, 0x74, 0x5f,
  0x69, 0x6e, 0x70, 0x75, 0x74, 0x5f, 0x6c, 0x61, 0x79, 0x65, 0x72, 0x5f,
  0x39, 0x3a, 0x30, 0x00, 0x02, 0x00, 0x00, 0x00, 0x01, 0x00, 0x00, 0x00,
  0x3c, 0x00, 0x00, 0x00, 0x04, 0x00, 0x00, 0x00, 0x58, 0x00, 0x00, 0x00,
  0x38, 0x00, 0x00, 0x00, 0x18, 0x00, 0x00, 0x00, 0x04, 0x00, 0x00, 0x00,
  0xe0, 0xff, 0xff, 0xff, 0x06, 0x00, 0x00, 0x00, 0x02, 0x00, 0x00, 0x00,
  0x00, 0x00, 0x00, 0x06, 0xf0, 0xff, 0xff, 0xff, 0x19, 0x00, 0x00, 0x00,
  0x02, 0x00, 0x00, 0x00, 0x00, 0x00, 0x00, 0x19, 0x0c, 0x00, 0x10, 0x00,
  0x0f, 0x00, 0x00, 0x00, 0x08, 0x00, 0x04, 0x00, 0x0c, 0x00, 0x00, 0x00,
  0x09, 0x00, 0x00, 0x00, 0x04, 0x00, 0x00, 0x00, 0x00, 0x00, 0x00, 0x09,
  0x0c, 0x00, 0x0c, 0x00, 0x0b, 0x00, 0x00, 0x00, 0x00, 0x00, 0x04, 0x00,
  0x0c, 0x00, 0x00, 0x00, 0x72, 0x00, 0x00, 0x00, 0x00, 0x00, 0x00, 0x72
};
unsigned int seizure_model_tflite_len = 6672;
